<unk>	0
PHRASE_OF_THE	0
PHRASE_IN_THE	0
PHRASE_TO_THE	0
PHRASE_ON_THE	0
PHRASE_FOR_THE	0
PHRASE_TO_BE	0
PHRASE_AND_THE	0
PHRASE_IS_A	0
PHRASE_WITH_THE	0
PHRASE_AT_THE	0
PHRASE_FROM_THE	0
PHRASE_WILL_BE	0
PHRASE_IS_THE	0
PHRASE_AS_A	0
PHRASE_THAT_THE	0
PHRASE_BY_THE	0
PHRASE_YOU_CAN	0
PHRASE_IT_IS	0
PHRASE_CAN_BE	0
PHRASE_ONE_OF	0
PHRASE_IF_YOU	0
PHRASE_HAS_BEEN	0
PHRASE_TO_GET	0
PHRASE_WANT_TO	0
PHRASE_AS_THE	0
PHRASE_AS_WELL	0
PHRASE_THE_SAME	0
PHRASE_SUCH_AS	0
PHRASE_ABLE_TO	0
PHRASE_THE_WORLD	0
PHRASE_GOING_TO	0
PHRASE_A_LOT	0
PHRASE_ONE_OF_THE	0
PHRASE_A_FEW	0
PHRASE_AS_WELL_AS	0
PHRASE_LOT_OF	0
PHRASE_THERE_ARE	0
PHRASE_THE_END	0
e▁	-0
s▁	-1
in	-2
d▁	-3
th	-4
er	-5
t▁	-6
an	-7
on	-8
or	-9
en	-10
,▁	-11
y▁	-12
.▁	-13
ing	-14
al	-15
re	-16
ed▁	-17
ou	-18
ar	-19
ti	-20
to	-21
ing▁	-22
of	-23
and▁	-24
es	-25
the▁	-26
a▁	-27
er▁	-28
it	-29
to▁	-30
es▁	-31
ro	-32
st	-33
ic	-34
at	-35
on▁	-36
ch	-37
le	-38
of▁	-39
il	-40
is▁	-41
for	-42
el	-43
at▁	-44
in▁	-45
om	-46
as	-47
ac	-48
di	-49
l▁	-50
ati	-51
o▁	-52
us	-53
ec	-54
al▁	-55
ow	-56
you	-57
am	-58
pro	-59
r▁	-60
si	-61
ur	-62
Th	-63
li	-64
as▁	-65
wh	-66
an▁	-67
ent	-68
et	-69
th▁	-70
ri	-71
the	-72
ve▁	-73
wi	-74
en▁	-75
ly▁	-76
ol	-77
ab	-78
k▁	-79
m▁	-80
un	-81
ver	-82
gh	-83
os	-84
ad	-85
pl	-86
I▁	-87
ed	-88
sh	-89
ag	-90
and	-91
for▁	-92
se	-93
that▁	-94
or▁	-95
id	-96
ha	-97
em	-98
su	-99
ay	-100
op	-101
com	-102
with▁	-103
ent▁	-104
ex	-105
are▁	-106
is	-107
im	-108
it▁	-109
The▁	-110
ation▁	-111
ff	-112
con	-113
per	-114
um	-115
tr	-116
ul	-117
oo	-118
ir	-119
qu	-120
oc	-121
p▁	-122
n▁	-123
ne	-124
ay▁	-125
no	-126
ak	-127
ter	-128
ap	-129
le▁	-130
ation	-131
por	-132
-▁	-133
uc	-134
oun	-135
ere▁	-136
bu	-137
ow▁	-138
ess	-139
we	-140
tion	-141
te	-142
ce▁	-143
you▁	-144
ch▁	-145
:▁	-146
av	-147
de	-148
be	-149
gr	-150
all▁	-151
your▁	-152
cl	-153
sp	-154
was▁	-155
ers▁	-156
ear	-157
this▁	-158
itt	-159
out▁	-160
pr	-161
ate▁	-162
rec	-163
ld▁	-164
ts▁	-165
ail	-166
ain	-167
wor	-168
bl	-169
w▁	-170
not▁	-171
have▁	-172
ov	-173
tion▁	-174
20	-175
ble	-176
igh	-177
me	-178
g▁	-179
)▁	-180
ir▁	-181
umb	-182
res	-183
ther▁	-184
ould▁	-185
ev	-186
port	-187
so▁	-188
be▁	-189
ity▁	-190
pu	-191
by▁	-192
tic	-193
over	-194
par	-195
ding▁	-196
iz	-197
all	-198
our	-199
litt	-200
ic▁	-201
et▁	-202
fro	-203
one▁	-204
pos	-205
0▁	-206
vid	-207
our▁	-208
ant	-209
mor	-210
f▁	-211
ill▁	-212
ter▁	-213
ect	-214
str	-215
from▁	-216
od	-217
est▁	-218
but▁	-219
ity	-220
h▁	-221
mar	-222
their▁	-223
pe	-224
we▁	-225
me▁	-226
vi	-227
ar▁	-228
?▁	-229
ally▁	-230
po	-231
way	-232
any▁	-233
ough	-234
ure▁	-235
ess▁	-236
ce	-237
son	-238
bet	-239
”▁	-240
af	-241
he▁	-242
with	-243
ig	-244
sc	-245
In	-246
he	-247
end	-248
ome▁	-249
they▁	-250
will▁	-251
est	-252
st▁	-253
diff	-254
tom	-255
..	-256
has▁	-257
ine▁	-258
oci	-259
ake▁	-260
comp	-261
lo	-262
ad▁	-263
form	-264
ment	-265
don	-266
fe	-267
eff	-268
ge▁	-269
gan	-270
ink	-271
ple▁	-272
ke▁	-273
my▁	-274
soci	-275
Wh	-276
gi	-277
publ	-278
und	-279
ated▁	-280
differ	-281
ket	-282
age▁	-283
more▁	-284
ot	-285
ut	-286
his▁	-287
ite▁	-288
ser	-289
ust▁	-290
chn	-291
ich▁	-292
A▁	-293
prof	-294
import	-295
Ch	-296
el▁	-297
fin	-298
able	-299
able▁	-300
other▁	-301
qual	-302
betwe	-303
person	-304
ud	-305
are	-306
ever	-307
ment▁	-308
organ	-309
ell	-310
rect	-311
techn	-312
!▁	-313
cc	-314
ph	-315
ost▁	-316
sear	-317
do	-318
duc	-319
ion▁	-320
use▁	-321
se▁	-322
ustom	-323
which▁	-324
ll▁	-325
numb	-326
avail	-327
overn	-328
were▁	-329
am▁	-330
id▁	-331
its▁	-332
progr	-333
ach	-334
up▁	-335
cont	-336
ther	-337
who▁	-338
la	-339
can▁	-340
comm	-341
alway	-342
possi	-343
market	-344
proble	-345
organiz	-346
ob	-347
ra	-348
sa	-349
custom	-350
pp	-351
201	-352
ast▁	-353
ice▁	-354
open	-355
year	-356
An	-357
ers	-358
ist	-359
off	-360
govern	-361
ill	-362
ant▁	-363
about▁	-364
direct	-365
public	-366
divid	-367
resear	-368
would▁	-369
fi	-370
kn	-371
min	-372
ese▁	-373
when▁	-374
up	-375
ve	-376
ure	-377
ose▁	-378
ted▁	-379
like▁	-380
what▁	-381
problem	-382
bo	-383
by	-384
fir	-385
succ	-386
inter	-387
ording▁	-388
00	-389
had▁	-390
ound▁	-391
bec	-392
ong▁	-393
also▁	-394
tions▁	-395
individ	-396
"▁	-397
ough▁	-398
gu	-399
ack	-400
ard	-401
program	-402
;▁	-403
St	-404
ack▁	-405
educ	-406
success	-407
hel	-408
sti	-409
ely▁	-410
ence▁	-411
think	-412
ting▁	-413
available	-414
sid	-415
ght▁	-416
personal	-417
important	-418
des	-419
ase▁	-420
ood▁	-421
over▁	-422
possible	-423
br	-424
day	-425
fac	-426
enti	-427
work	-428
research	-429
We▁	-430
ome	-431
pre	-432
ents▁	-433
always	-434
effect	-435
different	-436
1▁	-437
au	-438
ip	-439
ly	-440
tw	-441
ain▁	-442
quality	-443
ord	-444
ty▁	-445
us▁	-446
ach▁	-447
ance▁	-448
little	-449
social	-450
ind	-451
ary▁	-452
new▁	-453
into▁	-454
number	-455
between	-456
profess	-457
og	-458
her▁	-459
just▁	-460
thing▁	-461
umber▁	-462
19	-463
cre	-464
ous▁	-465
dr	-466
ast	-467
high	-468
This▁	-469
only▁	-470
most▁	-471
co	-472
x▁	-473
In▁	-474
lec	-475
how▁	-476
ople▁	-477
2▁	-478
ke	-479
sy	-480
day▁	-481
ies▁	-482
ning▁	-483
ew	-484
acc	-485
emb	-486
ame▁	-487
ect▁	-488
serv	-489
sion	-490
ings▁	-491
go	-492
ook	-493
re▁	-494
tim	-495
people▁	-496
||	-497
ans	-498
do▁	-499
enc	-500
ard▁	-501
own▁	-502
pres	-503
ical▁	-504
sion▁	-505
fl	-506
if	-507
–▁	-508
ass	-509
row	-510
ile▁	-511
It▁	-512
out	-513
chan	-514
ree▁	-515
time▁	-516
Bu	-517
get▁	-518
4▁	-519
anc	-520
ate	-521
ful	-522
produc	-523
Un	-524
i▁	-525
col	-526
iti	-527
man	-528
thr	-529
Re	-530
att	-531
ial▁	-532
ors▁	-533
plac	-534
way▁	-535
make▁	-536
than▁	-537
tu	-538
rem	-539
sel	-540
ste	-541
ue▁	-542
there▁	-543
ations▁	-544
3▁	-545
5▁	-546
sk	-547
app	-548
no▁	-549
ener	-550
tive▁	-551
ating▁	-552
S▁	-553
ts	-554
one	-555
after▁	-556
these▁	-557
The	-558
dec	-559
ade▁	-560
als▁	-561
some▁	-562
ere	-563
ew▁	-564
vel	-565
incl	-566
ause▁	-567
Con	-568
amp	-569
gre	-570
if▁	-571
loc	-572
oll	-573
stor	-574
ight▁	-575
ge	-576
cho	-577
sur	-578
ble▁	-579
may▁	-580
been▁	-581
work▁	-582
mo	-583
Com	-584
any	-585
ari	-586
own	-587
sh▁	-588
some	-589
very▁	-590
ational▁	-591
car	-592
mer	-593
mil	-594
ous	-595
tur	-596
she▁	-597
8▁	-598
oy	-599
pri	-600
coun	-601
ick▁	-602
star	-603
bi	-604
ep	-605
iv	-606
ann	-607
ds▁	-608
ks▁	-609
sec	-610
end▁	-611
red▁	-612
).▁	-613
age	-614
cer	-615
int	-616
ons▁	-617
peri	-618
many▁	-619
them▁	-620
aking▁	-621
provid	-622
cr	-623
bas	-624
fun	-625
sup	-626
ook▁	-627
read	-628
ater▁	-629
ates▁	-630
even▁	-631
used▁	-632
first▁	-633
En	-634
fr	-635
fu	-636
mis	-637
dis	-638
eas	-639
see▁	-640
right▁	-641
hi	-642
so	-643
ty	-644
um▁	-645
ink▁	-646
play	-647
that	-648
help▁	-649
port▁	-650
where▁	-651
should▁	-652
6▁	-653
Al	-654
C▁	-655
cur	-656
inv	-657
two▁	-658
through▁	-659
It	-660
bel	-661
But▁	-662
ans▁	-663
chil	-664
fore▁	-665
know▁	-666
200	-667
Mar	-668
You	-669
cri	-670
eng	-671
ep▁	-672
exp	-673
run	-674
ell▁	-675
spec	-676
said▁	-677
could▁	-678
Tr	-679
az	-680
ong	-681
sul	-682
line▁	-683
&▁	-684
We	-685
sm	-686
wr	-687
.”▁	-688
lif	-689
mon	-690
tri	-691
ven	-692
tic▁	-693
each▁	-694
ving▁	-695
|▁	-696
det	-697
ine	-698
mat	-699
rel	-700
sol	-701
back▁	-702
sure▁	-703
under	-704
ember▁	-705
those▁	-706
D▁	-707
mu	-708
ia▁	-709
ici	-710
ign	-711
nam	-712
od▁	-713
cent	-714
ful▁	-715
resp	-716
need▁	-717
because▁	-718
T▁	-719
pa	-720
bus	-721
can	-722
il▁	-723
pic	-724
sit	-725
sub	-726
olog	-727
ves▁	-728
10	-729
E▁	-730
aff	-731
bre	-732
new	-733
And▁	-734
ass▁	-735
ool▁	-736
ered▁	-737
ative▁	-738
every▁	-739
add	-740
cor	-741
get	-742
happ	-743
ily▁	-744
iver	-745
now▁	-746
requ	-747
tain	-748
take▁	-749
then▁	-750
tions	-751
inform	-752
uring▁	-753
Cl	-754
Le	-755
gn	-756
ho	-757
ma	-758
),▁	-759
ang	-760
ros	-761
ust	-762
act▁	-763
disc	-764
ince▁	-765
king▁	-766
stand	-767
being▁	-768
ement▁	-769
still▁	-770
ef	-771
mod	-772
ond	-773
say	-774
sch	-775
cour	-776
ond▁	-777
tern	-778
They▁	-779
When▁	-780
both▁	-781
good▁	-782
ited▁	-783
velop	-784
ations	-785
before▁	-786
ld	-787
cas	-788
fam	-789
om▁	-790
too	-791
wee	-792
New▁	-793
You▁	-794
▁	-795
e	-796
t	-797
a	-798
o	-799
i	-800
n	-801
r	-802
s	-803
l	-804
d	-805
h	-806
c	-807
u	-808
m	-809
p	-810
g	-811
f	-812
y	-813
w	-814
b	-815
.	-816
v	-817
,	-818
k	-819
I	-820
T	-821
S	-822
A	-823
-	-824
C	-825
0	-826
’	-827
1	-828
M	-829
x	-830
P	-831
B	-832
2	-833
W	-834
D	-835
E	-836
R	-837
H	-838
L	-839
F	-840
N	-841
z	-842
G	-843
'	-844
O	-845
q	-846
:	-847
j	-848
)	-849
(	-850
3	-851
4	-852
5	-853
9	-854
|	-855
U	-856
"	-857
8	-858
6	-859
J	-860
?	-861
/	-862
K	-863
V	-864
”	-865
7	-866
“	-867
!	-868
Y	-869
;	-870
–	-871
&	-872
Q	-873
—	-874
$	-875
%	-876
Z	-877
‘	-878
+	-879
X	-880
[	-881
*	-882
]	-883
@	-884
=	-885
_	-886
~	-887
>	-888
é	-889
•	-890
€	-891
#	-892
£	-893
⁄	-894
Ð	-895
â	-896
<	-897
±	-898
·	-899
»	-900
§	-901
©	-902
®	-903
°	-904
Ñ	-905
ó	-906
ı	-907
ə	-908
α	-909
μ	-910
ا	-911
―	-912
\	-913
«	-914
×	-915
í	-916
ˆ	-917
́	-918
а	-919
е	-920
о	-921
د	-922
ر	-923
م	-924
ه	-925
′	-926
╖	-927
🙂	-928
^	-929
`	-930
¢	-931
¦	-932
Ã	-933
à	-934
á	-935
ä	-936
è	-937
î	-938
ñ	-939
ô	-940
ö	-941
ü	-942
ā	-943
Ă	-944
ć	-945
ī	-946
ō	-947
ū	-948
̧	-949
σ	-950
φ	-951
б	-952
в	-953
г	-954
й	-955
м	-956
с	-957
т	-958
х	-959
ч	-960
щ	-961
я	-962
أ	-963
ة	-964
س	-965
ش	-966
ض	-967
ف	-968
ق	-969
ل	-970
ن	-971
ي	-972
ً	-973
ک	-974
ی	-975
‚	-976
‰	-977
‹	-978
→	-979
◎	-980
★	-981
⚡	-982
电	-983
️	-984
